TRT-101601-MinMaxCalibration
images: 3c010204
/model.0/conv/Conv_output_0: 3f527f70
/model.0/act/Sigmoid_output_0: 3c010204
/model.0/act/Mul_output_0: 3f527f70
/model.1/conv/Conv_output_0: 3fb5da2f
/model.1/act/Sigmoid_output_0: 3c010204
/model.1/act/Mul_output_0: 3faf3414
/model.2/cv1/conv/Conv_output_0: 3f906368
/model.2/cv1/act/Sigmoid_output_0: 3c010204
/model.2/cv1/act/Mul_output_0: 3f53c4b1
/model.2/Split_output_0: 3f53c4b1
/model.2/Split_output_1: 3eef966f
/model.2/m.0/cv1/conv/Conv_output_0: 3d8c8429
/model.2/m.0/cv1/act/Sigmoid_output_0: 3bfe921e
/model.2/m.0/cv1/act/Mul_output_0: 3d08eb34
/model.2/m.0/cv2/conv/Conv_output_0: 3ed6186f
/model.2/m.0/cv2/act/Sigmoid_output_0: 3c010204
/model.2/m.0/cv2/act/Mul_output_0: 3ed02218
/model.2/m.0/Add_output_0: 3f118574
/model.2/Concat_output_0: 3f53c4b1
/model.2/cv2/conv/Conv_output_0: 3f4bebba
/model.2/cv2/act/Sigmoid_output_0: 3c010204
/model.2/cv2/act/Mul_output_0: 3eea9416
/model.3/conv/Conv_output_0: 3e1ba2ea
/model.3/act/Sigmoid_output_0: 3c010204
/model.3/act/Mul_output_0: 3e04f2e8
/model.4/cv1/conv/Conv_output_0: 3deaf09f
/model.4/cv1/act/Sigmoid_output_0: 3c0101dc
/model.4/cv1/act/Mul_output_0: 3dc595a1
/model.4/Split_output_0: 3dc595a1
/model.4/Split_output_1: 3d73dd7e
/model.4/m.0/cv1/conv/Conv_output_0: 3d987807
/model.4/m.0/cv1/act/Sigmoid_output_0: 3c00ff6e
/model.4/m.0/cv1/act/Mul_output_0: 3d9874f9
/model.4/m.0/cv2/conv/Conv_output_0: 3de31f9b
/model.4/m.0/cv2/act/Sigmoid_output_0: 3c00ff56
/model.4/m.0/cv2/act/Mul_output_0: 3d97e3a3
/model.4/m.0/Add_output_0: 3db0aff2
/model.4/Concat_output_0: 3dc595a1
/model.4/cv2/conv/Conv_output_0: 3dc031e2
/model.4/cv2/act/Sigmoid_output_0: 3c0101a0
/model.4/cv2/act/Mul_output_0: 3db714b9
/model.5/conv/Conv_output_0: 3e03e450
/model.5/act/Sigmoid_output_0: 3c0101fc
/model.5/act/Mul_output_0: 3de0b311
/model.6/cv1/conv/Conv_output_0: 3dd5c7b9
/model.6/cv1/act/Sigmoid_output_0: 3c0101d7
/model.6/cv1/act/Mul_output_0: 3dc39ec4
/model.6/Split_output_0: 3dc39ec4
/model.6/Split_output_1: 3da17c59
/model.6/m.0/cv1/conv/Conv_output_0: 3d80802e
/model.6/m.0/cv2/conv/Conv_output_0: 3e4c67f3
/model.6/m.0/cv1/act/Sigmoid_output_0: 3c00f696
/model.6/m.0/cv2/act/Sigmoid_output_0: 3c010204
/model.6/m.0/cv1/act/Mul_output_0: 3d8074cc
/model.6/m.0/cv2/act/Mul_output_0: 3e150b52
/model.6/m.0/m/m.0/cv1/conv/Conv_output_0: 3dbe2f6b
/model.6/m.0/m/m.0/cv1/act/Sigmoid_output_0: 3c0101c5
/model.6/m.0/m/m.0/cv1/act/Mul_output_0: 3dbe2f0d
/model.6/m.0/m/m.0/cv2/conv/Conv_output_0: 3d9cbdc9
/model.6/m.0/m/m.0/cv2/act/Sigmoid_output_0: 3c01000c
/model.6/m.0/m/m.0/cv2/act/Mul_output_0: 3d9cbb65
/model.6/m.0/m/m.0/Add_output_0: 3dc1871a
/model.6/m.0/m/m.1/cv1/conv/Conv_output_0: 3dbc0305
/model.6/m.0/m/m.1/cv1/act/Sigmoid_output_0: 3c0101bb
/model.6/m.0/m/m.1/cv1/act/Mul_output_0: 3dbc029b
/model.6/m.0/m/m.1/cv2/conv/Conv_output_0: 3e00ef6d
/model.6/m.0/m/m.1/cv2/act/Sigmoid_output_0: 3c010203
/model.6/m.0/m/m.1/cv2/act/Mul_output_0: 3e00ef6c
/model.6/m.0/m/m.1/Add_output_0: 3e106655
/model.6/m.0/Concat_output_0: 3e150b52
/model.6/m.0/cv3/conv/Conv_output_0: 3ddb52a9
/model.6/m.0/cv3/act/Sigmoid_output_0: 3c010165
/model.6/m.0/cv3/act/Mul_output_0: 3daf5331
/model.6/Concat_output_0: 3dc39ec4
/model.6/cv2/conv/Conv_output_0: 3dd323da
/model.6/cv2/act/Sigmoid_output_0: 3c0101f3
/model.6/cv2/act/Mul_output_0: 3dd323bd
/model.7/conv/Conv_output_0: 3deefaed
/model.7/act/Sigmoid_output_0: 3c0101a7
/model.7/act/Mul_output_0: 3db83e63
/model.8/cv1/conv/Conv_output_0: 3e156eb4
/model.8/cv1/act/Sigmoid_output_0: 3c010200
/model.8/cv1/act/Mul_output_0: 3deb3933
/model.8/Split_output_0: 3deb3933
/model.8/Split_output_1: 3dd72eec
/model.8/m.0/cv1/conv/Conv_output_0: 3d7e5e16
/model.8/m.0/cv2/conv/Conv_output_0: 3e040626
/model.8/m.0/cv1/act/Sigmoid_output_0: 3c00de85
/model.8/m.0/cv2/act/Sigmoid_output_0: 3c010204
/model.8/m.0/cv1/act/Mul_output_0: 3d5c30d7
/model.8/m.0/cv2/act/Mul_output_0: 3e040626
/model.8/m.0/m/m.0/cv1/conv/Conv_output_0: 3db43c8a
/model.8/m.0/m/m.0/cv1/act/Sigmoid_output_0: 3c010143
/model.8/m.0/m/m.0/cv1/act/Mul_output_0: 3dac38d7
/model.8/m.0/m/m.0/cv2/conv/Conv_output_0: 3dae884a
/model.8/m.0/m/m.0/cv2/act/Sigmoid_output_0: 3c0100ff
/model.8/m.0/m/m.0/cv2/act/Mul_output_0: 3da788b7
/model.8/m.0/m/m.0/Add_output_0: 3db4c4ea
/model.8/m.0/m/m.1/cv1/conv/Conv_output_0: 3d88160f
/model.8/m.0/m/m.1/cv1/act/Sigmoid_output_0: 3c00f559
/model.8/m.0/m/m.1/cv1/act/Mul_output_0: 3d7d944b
/model.8/m.0/m/m.1/cv2/conv/Conv_output_0: 3dda43dc
/model.8/m.0/m/m.1/cv2/act/Sigmoid_output_0: 3c0101f9
/model.8/m.0/m/m.1/cv2/act/Mul_output_0: 3dda43c9
/model.8/m.0/m/m.1/Add_output_0: 3e0912c5
/model.8/m.0/Concat_output_0: 3e0912c5
/model.8/m.0/cv3/conv/Conv_output_0: 3dbef2e0
/model.8/m.0/cv3/act/Sigmoid_output_0: 3c00eec5
/model.8/m.0/cv3/act/Mul_output_0: 3d700aff
/model.8/Concat_output_0: 3deb3933
/model.8/cv2/conv/Conv_output_0: 3dcf069c
/model.8/cv2/act/Sigmoid_output_0: 3c010081
/model.8/cv2/act/Mul_output_0: 3da13c28
/model.9/cv1/conv/Conv_output_0: 3dbe2f2e
/model.9/m/MaxPool_output_0: 3dbe2f2e
/model.9/m_1/MaxPool_output_0: 3dbe2f2e
/model.9/m_2/MaxPool_output_0: 3dbe2f2e
/model.9/Concat_output_0: 3dbe2f2e
/model.9/cv2/conv/Conv_output_0: 3dd89431
/model.9/cv2/act/Sigmoid_output_0: 3c00f9c4
/model.9/cv2/act/Mul_output_0: 3d85c8c2
/model.9/Add_output_0: 3dd723c8
/model.10/cv1/conv/Conv_output_0: 3e0158a2
/model.10/cv1/act/Sigmoid_output_0: 3c010204
/model.10/cv1/act/Mul_output_0: 3e0158a2
/model.10/Split_output_0: 3e0158a2
/model.10/Split_output_1: 3da83ff7
/model.10/m/m.0/attn/qkv/conv/Conv_output_0: 3de330b9
/model.10/m/m.0/attn/Reshape_output_0: 3de330b9
/model.10/m/m.0/attn/Split_output_0: 3d48a88d
/model.10/m/m.0/attn/Split_output_1: 3d8e48d2
/model.10/m/m.0/attn/Split_output_2: 3de330b9
/model.10/m/m.0/attn/Transpose_output_0: 3d48a88d
/model.10/m/m.0/attn/Reshape_2_output_0: 3de330b9
/model.10/m/m.0/attn/MatMul_output_0: 3f589072
/model.10/m/m.0/attn/pe/conv/Conv_output_0: 3d7d3848
/model.10/m/m.0/attn/Constant_1_output_0_output: 3ab671d7
ONNXTRT_Broadcast_output: 3ab671d7
/model.10/m/m.0/attn/Mul_output_0: 3e192251
/model.10/m/m.0/attn/Softmax_output: 3bf097de
/model.10/m/m.0/attn/Softmax_output_0: 3bf097de
/model.10/m/m.0/attn/Transpose_1_output_0: 3bf097de
/model.10/m/m.0/attn/MatMul_1_output_0: 3d941fc6
/model.10/m/m.0/attn/Reshape_1_output_0: 3d941fc6
/model.10/m/m.0/attn/Add_output_0: 3d7b3981
/model.10/m/m.0/attn/proj/conv/Conv_output_0: 3d6b0c07
/model.10/m/m.0/Add_output_0: 3da9c9be
/model.10/m/m.0/ffn/ffn.0/conv/Conv_output_0: 3d829f66
/model.10/m/m.0/ffn/ffn.0/act/Sigmoid_output_0: 3c007139
/model.10/m/m.0/ffn/ffn.0/act/Mul_output_0: 3d2e3560
/model.10/m/m.0/ffn/ffn.1/conv/Conv_output_0: 3ddcd371
/model.10/m/m.0/Add_1_output_0: 3de0e990
/model.10/Concat_output_0: 3e0158a2
/model.10/cv2/conv/Conv_output_0: 3df6ba2f
/model.10/cv2/act/Sigmoid_output_0: 3c0101b2
/model.10/cv2/act/Mul_output_0: 3dba43f5
/model.11/Resize_output_0: 3dba43f5
/model.12/Concat_output_0: 3dd323bd
/model.13/cv1/conv/Conv_output_0: 3deab979
/model.13/cv1/act/Sigmoid_output_0: 3c00fe47
/model.13/cv1/act/Mul_output_0: 3d9283ec
/model.13/Split_output_0: 3d7debcb
/model.13/Split_output_1: 3d9283ec
/model.13/m.0/cv1/conv/Conv_output_0: 3d6fdfe6
/model.13/m.0/cv2/conv/Conv_output_0: 3e0b051a
/model.13/m.0/cv1/act/Sigmoid_output_0: 3c00ee96
/model.13/m.0/cv2/act/Sigmoid_output_0: 3c0101eb
/model.13/m.0/cv1/act/Mul_output_0: 3d6fbbc5
/model.13/m.0/cv2/act/Mul_output_0: 3dcce058
/model.13/m.0/m/m.0/cv1/conv/Conv_output_0: 3db2f65c
/model.13/m.0/m/m.0/cv1/act/Sigmoid_output_0: 3c010183
/model.13/m.0/m/m.0/cv1/act/Mul_output_0: 3db2f5a8
/model.13/m.0/m/m.0/cv2/conv/Conv_output_0: 3dcd324c
/model.13/m.0/m/m.0/cv2/act/Sigmoid_output_0: 3c0101eb
/model.13/m.0/m/m.0/cv2/act/Mul_output_0: 3dcd3223
/model.13/m.0/m/m.0/Add_output_0: 3e09be8e
/model.13/m.0/m/m.1/cv1/conv/Conv_output_0: 3da3ebf6
/model.13/m.0/m/m.1/cv1/act/Sigmoid_output_0: 3c00fba0
/model.13/m.0/m/m.1/cv1/act/Mul_output_0: 3d89d0ad
/model.13/m.0/m/m.1/cv2/conv/Conv_output_0: 3dfb7667
/model.13/m.0/m/m.1/cv2/act/Sigmoid_output_0: 3c010203
/model.13/m.0/m/m.1/cv2/act/Mul_output_0: 3dfb7664
/model.13/m.0/m/m.1/Add_output_0: 3e22fbc2
/model.13/m.0/Concat_output_0: 3e22fbc2
/model.13/m.0/cv3/conv/Conv_output_0: 3db33734
/model.13/m.0/cv3/act/Sigmoid_output_0: 3c01004f
/model.13/m.0/cv3/act/Mul_output_0: 3d9f1228
/model.13/Concat_output_0: 3d9f1228
/model.13/cv2/conv/Conv_output_0: 3de590a7
/model.13/cv2/act/Sigmoid_output_0: 3c0100af
/model.13/cv2/act/Mul_output_0: 3da33ea9
/model.14/Resize_output_0: 3da33ea9
/model.15/Concat_output_0: 3db714b9
/model.16/cv1/conv/Conv_output_0: 3db8f14e
/model.16/cv1/act/Sigmoid_output_0: 3c01007f
/model.16/cv1/act/Mul_output_0: 3da12ff5
/model.16/Split_output_0: 3d9119b0
/model.16/Split_output_1: 3da12ff5
/model.16/m.0/cv1/conv/Conv_output_0: 3d12b057
/model.16/m.0/cv2/conv/Conv_output_0: 3ddcc958
/model.16/m.0/cv1/act/Sigmoid_output_0: 3bff5014
/model.16/m.0/cv2/act/Sigmoid_output_0: 3c0101fa
/model.16/m.0/cv1/act/Mul_output_0: 3d1126f2
/model.16/m.0/cv2/act/Mul_output_0: 3ddad40b
/model.16/m.0/m/m.0/cv1/conv/Conv_output_0: 3db30469
/model.16/m.0/m/m.0/cv1/act/Sigmoid_output_0: 3c010184
/model.16/m.0/m/m.0/cv1/act/Mul_output_0: 3db303b7
/model.16/m.0/m/m.0/cv2/conv/Conv_output_0: 3dc45de9
/model.16/m.0/m/m.0/cv2/act/Sigmoid_output_0: 3c0101d9
/model.16/m.0/m/m.0/cv2/act/Mul_output_0: 3dc45da7
/model.16/m.0/m/m.0/Add_output_0: 3de15e18
/model.16/m.0/m/m.1/cv1/conv/Conv_output_0: 3dd4fe79
/model.16/m.0/m/m.1/cv1/act/Sigmoid_output_0: 3c01015c
/model.16/m.0/m/m.1/cv1/act/Mul_output_0: 3dae7079
/model.16/m.0/m/m.1/cv2/conv/Conv_output_0: 3e674750
/model.16/m.0/m/m.1/cv2/act/Sigmoid_output_0: 3c010204
/model.16/m.0/m/m.1/cv2/act/Mul_output_0: 3e674750
/model.16/m.0/m/m.1/Add_output_0: 3e85cd30
/model.16/m.0/Concat_output_0: 3e85cd30
/model.16/m.0/cv3/conv/Conv_output_0: 3e2ae0c8
/model.16/m.0/cv3/act/Sigmoid_output_0: 3c010203
/model.16/m.0/cv3/act/Mul_output_0: 3e00db4a
/model.16/Concat_output_0: 3e00db4a
/model.16/cv2/conv/Conv_output_0: 3e8f570b
/model.16/cv2/act/Sigmoid_output_0: 3c00febe
/model.16/cv2/act/Mul_output_0: 3d94b797
/model.17/conv/Conv_output_0: 3d8fcac4
/model.23/one2one_cv2.0/one2one_cv2.0.0/conv/Conv_output_0: 3e5e0d93
/model.23/one2one_cv3.0/one2one_cv3.0.0/one2one_cv3.0.0.0/conv/Conv_output_0: 3e483bcd
/model.17/act/Sigmoid_output_0: 3c00fd97
/model.23/one2one_cv2.0/one2one_cv2.0.0/act/Sigmoid_output_0: 3c010204
/model.23/one2one_cv3.0/one2one_cv3.0.0/one2one_cv3.0.0.0/act/Sigmoid_output_0: 3c010204
/model.17/act/Mul_output_0: 3d8fc5d5
/model.23/one2one_cv2.0/one2one_cv2.0.0/act/Mul_output_0: 3e1eddae
/model.23/one2one_cv3.0/one2one_cv3.0.0/one2one_cv3.0.0.0/act/Mul_output_0: 3e483bcd
/model.18/Concat_output_0: 3da33ea9
/model.23/one2one_cv2.0/one2one_cv2.0.1/conv/Conv_output_0: 3da665e2
/model.23/one2one_cv3.0/one2one_cv3.0.0/one2one_cv3.0.0.1/conv/Conv_output_0: 3dbe87ab
/model.19/cv1/conv/Conv_output_0: 3dd33b83
/model.23/one2one_cv2.0/one2one_cv2.0.1/act/Sigmoid_output_0: 3c00c902
/model.23/one2one_cv3.0/one2one_cv3.0.0/one2one_cv3.0.0.1/act/Sigmoid_output_0: 3c0101aa
/model.19/cv1/act/Sigmoid_output_0: 3c010199
/model.23/one2one_cv2.0/one2one_cv2.0.1/act/Mul_output_0: 3d4cc608
/model.23/one2one_cv3.0/one2one_cv3.0.0/one2one_cv3.0.0.1/act/Mul_output_0: 3db8b632
/model.19/cv1/act/Mul_output_0: 3db5e5ac
/model.23/one2one_cv2.0/one2one_cv2.0.2/Conv_output_0: 3dcc8e9c
/model.23/one2one_cv3.0/one2one_cv3.0.1/one2one_cv3.0.1.0/conv/Conv_output_0: 3e0e597f
/model.19/Split_output_0: 3db37123
/model.19/Split_output_1: 3db5e5ac
/model.23/Reshape_output_0: 3dcc8e9c
/model.23/one2one_cv3.0/one2one_cv3.0.1/one2one_cv3.0.1.0/act/Sigmoid_output_0: 3c010204
/model.19/m.0/cv1/conv/Conv_output_0: 3d283779
/model.19/m.0/cv2/conv/Conv_output_0: 3e323d2c
/model.23/one2one_cv3.0/one2one_cv3.0.1/one2one_cv3.0.1.0/act/Mul_output_0: 3e0e597f
/model.19/m.0/cv1/act/Sigmoid_output_0: 3bf346a3
/model.19/m.0/cv2/act/Sigmoid_output_0: 3c0101f4
/model.23/one2one_cv3.0/one2one_cv3.0.1/one2one_cv3.0.1.1/conv/Conv_output_0: 3e40fb27
/model.19/m.0/cv1/act/Mul_output_0: 3caa8487
/model.19/m.0/cv2/act/Mul_output_0: 3dd4931b
/model.23/one2one_cv3.0/one2one_cv3.0.1/one2one_cv3.0.1.1/act/Sigmoid_output_0: 3c010204
/model.19/m.0/m/m.0/cv1/conv/Conv_output_0: 3da5e322
/model.23/one2one_cv3.0/one2one_cv3.0.1/one2one_cv3.0.1.1/act/Mul_output_0: 3e40fb27
/model.19/m.0/m/m.0/cv1/act/Sigmoid_output_0: 3c00fc8c
/model.23/one2one_cv3.0/one2one_cv3.0.2/Conv_output_0: 3ecac23e
/model.19/m.0/m/m.0/cv1/act/Mul_output_0: 3d8c4341
/model.23/Reshape_3_output_0: 3ecac23e
/model.19/m.0/m/m.0/cv2/conv/Conv_output_0: 3dc932e6
/model.19/m.0/m/m.0/cv2/act/Sigmoid_output_0: 3c0101e4
/model.19/m.0/m/m.0/cv2/act/Mul_output_0: 3dc932b3
/model.19/m.0/m/m.0/Add_output_0: 3dc58cf7
/model.19/m.0/m/m.1/cv1/conv/Conv_output_0: 3dd11e00
/model.19/m.0/m/m.1/cv1/act/Sigmoid_output_0: 3c0101e3
/model.19/m.0/m/m.1/cv1/act/Mul_output_0: 3dc8b1d3
/model.19/m.0/m/m.1/cv2/conv/Conv_output_0: 3eb06db8
/model.19/m.0/m/m.1/cv2/act/Sigmoid_output_0: 3c010204
/model.19/m.0/m/m.1/cv2/act/Mul_output_0: 3eb06db8
/model.19/m.0/m/m.1/Add_output_0: 3eb1d4b3
/model.19/m.0/Concat_output_0: 3eb1d4b3
/model.19/m.0/cv3/conv/Conv_output_0: 3ed00eb2
/model.19/m.0/cv3/act/Sigmoid_output_0: 3c010203
/model.19/m.0/cv3/act/Mul_output_0: 3dfa1cf9
/model.19/Concat_output_0: 3dfa1cf9
/model.19/cv2/conv/Conv_output_0: 3e95a39f
/model.19/cv2/act/Sigmoid_output_0: 3c00fec2
/model.19/cv2/act/Mul_output_0: 3d94cb44
/model.20/conv/Conv_output_0: 3da16933
/model.23/one2one_cv2.1/one2one_cv2.1.0/conv/Conv_output_0: 3daf0109
/model.23/one2one_cv3.1/one2one_cv3.1.0/one2one_cv3.1.0.0/conv/Conv_output_0: 3e5f2daa
/model.20/act/Sigmoid_output_0: 3c010088
/model.23/one2one_cv2.1/one2one_cv2.1.0/act/Sigmoid_output_0: 3c01015f
/model.23/one2one_cv3.1/one2one_cv3.1.0/one2one_cv3.1.0.0/act/Sigmoid_output_0: 3c010204
/model.20/act/Mul_output_0: 3da16758
/model.23/one2one_cv2.1/one2one_cv2.1.0/act/Mul_output_0: 3daeb6b5
/model.23/one2one_cv3.1/one2one_cv3.1.0/one2one_cv3.1.0.0/act/Mul_output_0: 3e5f2daa
/model.21/Concat_output_0: 3dba43f5
/model.23/one2one_cv2.1/one2one_cv2.1.1/conv/Conv_output_0: 3d9fce2f
/model.23/one2one_cv3.1/one2one_cv3.1.0/one2one_cv3.1.0.1/conv/Conv_output_0: 3dfb4d24
/model.22/cv1/conv/Conv_output_0: 3dfaf213
/model.23/one2one_cv2.1/one2one_cv2.1.1/act/Sigmoid_output_0: 3c009486
/model.23/one2one_cv3.1/one2one_cv3.1.0/one2one_cv3.1.0.1/act/Sigmoid_output_0: 3c010203
/model.22/cv1/act/Sigmoid_output_0: 3c010203
/model.23/one2one_cv2.1/one2one_cv2.1.1/act/Mul_output_0: 3d3769e6
/model.23/one2one_cv3.1/one2one_cv3.1.0/one2one_cv3.1.0.1/act/Mul_output_0: 3dfb4d21
/model.22/cv1/act/Mul_output_0: 3dfaf210
/model.23/one2one_cv2.1/one2one_cv2.1.2/Conv_output_0: 3e2833a7
/model.23/one2one_cv3.1/one2one_cv3.1.1/one2one_cv3.1.1.0/conv/Conv_output_0: 3eefda25
/model.22/Split_output_0: 3dfaf210
/model.22/Split_output_1: 3de7e701
/model.23/Reshape_1_output_0: 3e2833a7
/model.23/one2one_cv3.1/one2one_cv3.1.1/one2one_cv3.1.1.0/act/Sigmoid_output_0: 3c010204
/model.22/m.0/m.0.0/cv1/conv/Conv_output_0: 3ddf945b
/model.23/one2one_cv3.1/one2one_cv3.1.1/one2one_cv3.1.1.0/act/Mul_output_0: 3eefda25
/model.22/m.0/m.0.0/cv1/act/Sigmoid_output_0: 3c010186
/model.23/one2one_cv3.1/one2one_cv3.1.1/one2one_cv3.1.1.1/conv/Conv_output_0: 3f01191e
/model.22/m.0/m.0.0/cv1/act/Mul_output_0: 3db33c7f
/model.23/one2one_cv3.1/one2one_cv3.1.1/one2one_cv3.1.1.1/act/Sigmoid_output_0: 3c010204
/model.22/m.0/m.0.0/cv2/conv/Conv_output_0: 3df20658
/model.23/one2one_cv3.1/one2one_cv3.1.1/one2one_cv3.1.1.1/act/Mul_output_0: 3f01191e
/model.22/m.0/m.0.0/cv2/act/Sigmoid_output_0: 3c0101e6
/model.23/one2one_cv3.1/one2one_cv3.1.2/Conv_output_0: 3f95d2f2
/model.22/m.0/m.0.0/cv2/act/Mul_output_0: 3dca4e22
/model.23/Reshape_4_output_0: 3f95d2f2
/model.22/m.0/m.0.0/Add_output_0: 3dfc5544
/model.22/m.0/m.0.1/attn/qkv/conv/Conv_output_0: 3dde3bc4
/model.22/m.0/m.0.1/attn/Reshape_output_0: 3dde3bc4
/model.22/m.0/m.0.1/attn/Split_output_0: 3da55706
/model.22/m.0/m.0.1/attn/Split_output_1: 3d9bd4f7
/model.22/m.0/m.0.1/attn/Split_output_2: 3dde3bc4
/model.22/m.0/m.0.1/attn/Transpose_output_0: 3da55706
/model.22/m.0/m.0.1/attn/Reshape_2_output_0: 3dde3bc4
/model.22/m.0/m.0.1/attn/MatMul_output_0: 3fd974f9
/model.22/m.0/m.0.1/attn/pe/conv/Conv_output_0: 3e152ac9
ONNXTRT_Broadcast_47_output: 3ab671d7
/model.22/m.0/m.0.1/attn/Mul_output_0: 3e99c3e8
/model.22/m.0/m.0.1/attn/Softmax_output: 3c0101ec
/model.22/m.0/m.0.1/attn/Softmax_output_0: 3c0101ec
/model.22/m.0/m.0.1/attn/Transpose_1_output_0: 3c0101ec
/model.22/m.0/m.0.1/attn/MatMul_1_output_0: 3dc9b6e6
/model.22/m.0/m.0.1/attn/Reshape_1_output_0: 3dc9b6e6
/model.22/m.0/m.0.1/attn/Add_output_0: 3e254963
/model.22/m.0/m.0.1/attn/proj/conv/Conv_output_0: 3da7ff6f
/model.22/m.0/m.0.1/Add_output_0: 3df6ff13
/model.22/m.0/m.0.1/ffn/ffn.0/conv/Conv_output_0: 3e24ca21
/model.22/m.0/m.0.1/ffn/ffn.0/act/Sigmoid_output_0: 3c010202
/model.22/m.0/m.0.1/ffn/ffn.0/act/Mul_output_0: 3df5c61a
/model.22/m.0/m.0.1/ffn/ffn.1/conv/Conv_output_0: 3e0512a8
/model.22/m.0/m.0.1/Add_1_output_0: 3e07c0da
/model.22/Concat_output_0: 3e07c0da
/model.22/cv2/conv/Conv_output_0: 3e6f1db1
/model.22/cv2/act/Sigmoid_output_0: 3c010204
/model.22/cv2/act/Mul_output_0: 3e6f1db1
/model.23/one2one_cv2.2/one2one_cv2.2.0/conv/Conv_output_0: 3d6632c4
/model.23/one2one_cv3.2/one2one_cv3.2.0/one2one_cv3.2.0.0/conv/Conv_output_0: 3eb03eb1
/model.23/one2one_cv2.2/one2one_cv2.2.0/act/Sigmoid_output_0: 3c00e783
/model.23/one2one_cv3.2/one2one_cv3.2.0/one2one_cv3.2.0.0/act/Sigmoid_output_0: 3c010204
/model.23/one2one_cv2.2/one2one_cv2.2.0/act/Mul_output_0: 3d65acbe
/model.23/one2one_cv3.2/one2one_cv3.2.0/one2one_cv3.2.0.0/act/Mul_output_0: 3ea68173
/model.23/one2one_cv2.2/one2one_cv2.2.1/conv/Conv_output_0: 3d4c9444
/model.23/one2one_cv3.2/one2one_cv3.2.0/one2one_cv3.2.0.1/conv/Conv_output_0: 3e376301
/model.23/one2one_cv2.2/one2one_cv2.2.1/act/Sigmoid_output_0: 3bff01c8
/model.23/one2one_cv3.2/one2one_cv3.2.0/one2one_cv3.2.0.1/act/Sigmoid_output_0: 3c0101ff
/model.23/one2one_cv2.2/one2one_cv2.2.1/act/Mul_output_0: 3d0d84a9
/model.23/one2one_cv3.2/one2one_cv3.2.0/one2one_cv3.2.0.1/act/Mul_output_0: 3de6cbed
/model.23/one2one_cv2.2/one2one_cv2.2.2/Conv_output_0: 3dce4c2b
/model.23/one2one_cv3.2/one2one_cv3.2.1/one2one_cv3.2.1.0/conv/Conv_output_0: 3ed766aa
/model.23/Reshape_2_output_0: 3dce4c2b
/model.23/one2one_cv3.2/one2one_cv3.2.1/one2one_cv3.2.1.0/act/Sigmoid_output_0: 3c010204
/model.23/Concat_output_0: 3e2833a7
/model.23/one2one_cv3.2/one2one_cv3.2.1/one2one_cv3.2.1.0/act/Mul_output_0: 3ed766aa
/model.23/one2one_cv3.2/one2one_cv3.2.1/one2one_cv3.2.1.1/conv/Conv_output_0: 3ef9a628
/model.23/Concat_2_output_0: 3f29d60d
/model.23/one2one_cv3.2/one2one_cv3.2.2/Conv_output_0: 3fce96e1
/model.23/ReduceMax_output_0: 3bfcf621
/model.23/TopK_output_0: 0
ONNXTRT_Broadcast_114_output: 3e810204
/model.23/Mul_2_output_0: 40b76909
/model.23/Constant_14_output_0_output: 3e810204
/model.23/Reshape_5_output_0: 3fce96e1
/model.23/Add_1_output_0: 3f29d60d
/model.23/Concat_1_output_0: 3fce96e1
/model.23/Sigmoid_output_0: 3bfcf621
/model.23/one2one_cv3.2/one2one_cv3.2.1/one2one_cv3.2.1.1/act/Mul_output_0: 3ef9a628
/model.23/Concat_3_output_0: 40b76909
/model.23/Transpose_output_0: 40b76909
/model.23/Sub_output_0: 3f204106
/model.23/Slice_1_output_0: 3e2833a7
/model.23/Constant_13_output_0_output: 3f204081
/model.23/one2one_cv3.2/one2one_cv3.2.1/one2one_cv3.2.1.1/act/Sigmoid_output_0: 3c010204
/model.23/Split_output_1: 3bfcf621
output0: 40b26267
/model.23/Split_output_0: 40b76909
/model.23/Slice_output_0: 3e20af58
/model.23/Constant_12_output_0_output: 3f204081
/model.23/Flatten_output_0: 3bfcf621
/model.23/TopK_1_output_0: 3bfcf621
/model.23/GatherElements_output_0: 3bfcf621
/model.23/GatherElements_1_output_0: 40b26267
/model.23/Cast_2_output_0: 3e59b367
/model.23/Unsqueeze_1_output_0: 3bfcf621
